{"merge_rules": [["_", "t"], ["h", "e"], ["_", "a"], ["i", "n"], ["e", "d"], ["_", "s"], ["o", "n"], ["e", "r"], ["e", "n"], ["a", "t"], ["o", "r"], ["_", "c"], ["_", "w"], ["a", "r"], ["_t", "he"], ["_", "d"], ["in", "g"], ["_", "f"], ["r", "e"], ["n", "d"], ["o", "u"], ["i", "t"], ["_", "m"], ["s", "t"], ["_", "\u201c"], ["_", "p"], ["_", "in"], ["i", "s"], ["_a", "nd"], ["_", "b"], ["_t", "o"], ["r", "o"], ["_", "l"], ["t", "s"], ["i", "l"], ["i", "on"], ["a", "n"], ["a", "l"], ["_", "o"], ["_", "re"], ["_", "h"], ["e", "l"], ["o", "w"], [",", "\u201d"], ["he", "r"], ["a", "y"], ["k", "e"], ["en", "t"], ["o", "l"], ["_d", "e"], ["i", "r"], ["e", "a"], ["i", "c"], ["_", "e"], ["_", "u"], ["T", "he"], ["_", "g"], ["s", ","], ["s", "."], ["_", "on"], ["r", "a"], ["_", "n"], ["_s", "t"], ["_s", "h"], ["g", "h"], ["i", "d"], ["_", "he"], ["_t", "h"], ["_", "A"], ["v", "e"], ["i", "m"], ["at", "ion"], ["v", "er"], ["s", "s"], ["o", "o"], ["_o", "f"], ["_", "y"], ["p", "p"], ["e", "."], ["e", "c"], ["o", "m"], ["_", "The"], ["a", "d"], ["_", "M"], ["_f", "or"], ["a", "m"], ["_y", "ou"], ["u", "t"], ["o", "t"], ["e", "s"], ["h", "il"], ["it", "y"], ["ra", "in"], ["e", "t"], ["r", "ou"], ["_w", "it"], ["_wit", "h"], ["_", "I"], ["a", "g"], ["c", "k"], ["l", "y"], ["_e", "x"], ["_", "v"], ["_", "S"], ["u", "r"], ["or", "n"], ["_", "ro"], ["s", "e"], ["a", "st"], ["ar", "m"], ["arm", "er"], ["_", "r"], ["_b", "oo"], ["_", "ou"], ["i", "gh"], ["ke", "t"], ["_t", "ea"], ["st", "or"], ["_n", "e"], ["i", "z"], ["g", "n"], ["a", "s"], ["t", "er"], ["e", "st"], ["_", "O"], ["_re", "c"], ["it", "ion"], ["o", "d"], ["c", "e"], ["l", "d"], ["en", "ts"], ["_a", "s"], ["_h", "is"], ["p", "l"], ["l", "l"], ["c", "h"], ["_", "is"], ["l", "e"], ["_w", "or"], ["_", "H"], ["_s", "u"], ["el", "d"], ["_l", "on"], ["_lon", "g"], ["_a", "c"], ["ss", "ed"], ["_the", "ir"], ["at", "e"], ["igh", "t"], ["_p", "o"], ["hil", "e"], ["ea", "s"], ["_s", "o"], ["_th", "rou"], ["_throu", "gh"], ["_sh", "ow"], ["_u", "s"], ["ec", "h"], ["c", "her"], ["_a", "t"], ["_", "B"], ["or", "e"], ["_s", "p"], ["_t", "rain"], ["i", "ve"], ["_\u201c", "W"], ["_c", "on"], ["_", "en"], ["_l", "i"], ["_p", "r"], ["k", "ed"], ["_", "it"], ["_u", "p"], ["_", "N"], ["_", "q"], ["_q", "u"], ["_re", "s"], ["_b", "e"], ["u", "e"], ["ec", "t"], ["_w", "as"], ["_", "her"], ["h", "on"], ["hon", "e."], ["at", "her"], ["m", "s"], ["ar", "t"], [".", "\u201d"], ["r", "en"], ["n", "ow"], ["er", ","], ["_you", "n"], ["_youn", "g"], ["_A", "n"], ["_th", "at"], ["w", "ay"], ["u", "re"], ["_de", "b"], ["_", "k"], ["h", "at"], ["ed", "."], ["i", "f"], ["ot", "her"], ["_m", "orn"], ["_morn", "ing"], ["_o", "ver"], ["ol", "d"], ["i", "eld"], ["_ac", "ro"], ["_acro", "ss"], ["_w", "he"], ["_", "F"], ["_F", "armer"], ["re", "ssed"], ["_w", "er"], ["_wer", "e"], ["_a", "l"], ["_ou", "t"], ["en", "d"], ["ro", "p"], ["_w", "e"], ["_d", "on"], ["_don", "'"], ["_don'", "t"], ["r", "i"], ["_to", "d"], ["_tod", "ay"], ["_d", "r"], ["_sh", "ou"], ["_shou", "t"], ["_on", "e"], ["_the", "m"], ["_po", "in"], ["w", "ar"], ["_M", "e"], ["_Me", "an"], ["_Mean", "w"], ["_Meanw", "hile"], ["_Meanwhile", ","], ["_m", "ar"], ["m", "ed"], ["er", "t"], ["ert", "il"], ["ertil", "iz"], ["ertiliz", "er"], ["i", "gn"], ["_\u201c", "L"], ["t", "h"], ["g", "g"], ["_f", "l"], ["i", "pp"], ["ts", "."], ["_", "D"], ["_show", "ed"], ["_", "1"], ["u", "c"], ["_b", "i"], ["o", "f"], ["_O", "n"], ["_t", "ech"], ["_B", "an"], ["_u", "n"], ["_rec", "o"], ["_reco", "gn"], ["_recogn", "ition"], ["_m", "od"], ["_mod", "el"], ["_I", "nd"], ["_Ind", "i"], ["ag", "e"], ["_\u201cW", "e"], ["_o", "p"], ["ou", "r"], ["_s", "a"], ["_sa", "id"], ["_s", "c"], ["i", "ent"], ["i", "st"], ["f", "or"], ["v", "en"], ["m", "ents"], ["ke", "ts"], ["_st", "ation"], ["_st", "o"], ["_sto", "ck"], ["_pr", "ic"], ["?", "\u201d"], ["_", "R"], ["l", "a"], ["h", ","], ["\u2019", "s"], ["a", "."], ["oo", "d"], ["u", "l"], ["u", "st"], ["_", "im"], ["_im", "p"], ["_\u201c", "The"], ["_ex", "p"], ["_exp", "ect"], ["_b", "ut"], ["er", "v"], ["ive", ",\u201d"], ["_s", "he"], ["ed", ","], ["_p", "hone."], ["_", "W"], ["u", "nd"], ["_c", "ent"], ["n", "ed"], ["_h", "ar"], ["_r", "is"], ["ol", "o"], ["olo", "g"], ["_de", "p"], ["_dep", "art"], ["m", "ent"], ["_b", "u"], ["_\u201c", "H"], ["al", "l"], ["_c", "a"], ["_I", "n"], ["_s", "m"], ["hil", "d"], ["hild", "ren"], ["l", "ed"], ["_tea", "cher"], ["_w", "om"], ["i", "."], ["_st", "u"], ["_stu", "d"], ["_ex", "pl"], ["_", "L"], ["ts", "id"], ["tsid", "e"], ["_boo", "k"], ["ic", "ket"], ["_a", "pp"], ["_\u201c", "B"], ["_m", "e"], ["le", "e"], ["p", "er"], ["ar", "ly"], ["_in", "t"], ["_\u201c", "S"], ["_", "C"], ["h", "i"], ["_p", "ar"], ["ar", "y"], ["_f", "armer"], ["o", "s"], ["_p", "ol"], ["_pol", "ic"], ["_polic", "y"], ["_f", "a"], ["_fa", "ir"], ["_c", "om"], ["c", "l"], ["_A", "t"], ["o", "c"], ["_t", "ur"], ["_the", "y"], ["_s", "l"], ["_sl", "ow"], ["or", "s"], ["om", "e"], ["h", "o"], ["_M", "ar"], ["a", "ke"], ["t", "e"], ["_h", "ad"], ["_h", "im"], ["ay", "ed"], ["_c", "od"], ["a", "in"], ["_v", "ol"], ["_c", "orn"], ["_e", "ver"], ["_ever", "y"], ["_t", "im"], ["_tim", "e"], ["u", "n"], ["_su", "n"], ["_ro", "se"], ["_g", "old"], ["_gold", "en"], ["_f", "ield"], ["_field", "s,"], ["_c", "ast"], ["_cast", "ing"], ["_sh", "ad"], ["_shad", "ow"], ["_shadow", "s"], ["_de", "w"], ["_dew", "-"], ["_dew-", "c"], ["_dew-c", "o"], ["_dew-co", "ver"], ["_dew-cover", "ed"], ["_whe", "at"], ["_wheat", "."], ["_Farmer", "s,"], ["_d", "ressed"], ["_f", "ad"], ["_fad", "ed"], ["_sh", "ir"], ["_shir", "ts"], ["_r", "u"], ["_ru", "b"], ["_rub", "b"], ["_rubb", "er"], ["_boo", "ts"], ["_boots", ","], ["_al", "re"], ["_alre", "ad"], ["_alread", "y"], ["_t", "end"], ["_tend", "ing"], ["_c", "rop"], ["_crop", "s."], ["_\u201c", "I"], ["_\u201cI", "f"], ["_", "ir"], ["_ir", "ri"], ["_irri", "g"], ["_irrig", "ate"], ["_today", ","], ["_ro", "o"], ["_roo", "ts"], ["_m", "ight"], ["_dr", "y"], ["_out", ",\u201d"], ["_shout", "ed"], ["_them", ","], ["_poin", "t"], ["_point", "ing"], ["_to", "war"], ["_towar", "d"], ["_c", "an"], ["_can", "al"], ["_canal", "."], ["_c", "ity"], ["_city", ","], ["_mar", "ket"], ["_market", "ing"], ["_tea", "m"], ["_b", "rain"], ["_brain", "stor"], ["_brainstor", "med"], ["_", "id"], ["_id", "eas"], ["_ne", "w"], ["_", "or"], ["_or", "g"], ["_org", "an"], ["_organ", "ic"], ["_f", "ertilizer"], ["_c", "am"], ["_cam", "p"], ["_camp", "a"], ["_campa", "ign"], ["_campaign", "."], ["_\u201cL", "et"], ["_\u201cLet", "'"], ["_\u201cLet'", "s"], ["_e", "m"], ["_em", "p"], ["_emp", "h"], ["_emph", "as"], ["_emphas", "iz"], ["_emphasiz", "e"], ["_so", "il"], ["_he", "al"], ["_heal", "th"], ["_long", "-"], ["_long-", "ter"], ["_long-ter", "m"], ["_y", "ield"], ["_yield", ",\u201d"], ["_su", "gg"], ["_sugg", "est"], ["_suggest", "ed"], ["_", "P"], ["_P", "ri"], ["_Pri", "y"], ["_Priy", "a"], ["_Priya", ","], ["_fl", "ipp"], ["_flipp", "ing"], ["_c", "h"], ["_ch", "ar"], ["_char", "ts."], ["_D", "at"], ["_Dat", "a"], ["_f", "ro"], ["_fro", "m"], ["_l", "ast"], ["_s", "eas"], ["_seas", "on"], ["_1", "5"], ["_15", "%"], ["_boo", "st"], ["_p", "ro"], ["_pro", "d"], ["_prod", "uc"], ["_produc", "t"], ["_product", "i"], ["_producti", "v"], ["_productiv", "ity"], ["_bi", "of"], ["_biof", "ertilizer"], ["_us", "e."], ["_f", "r"], ["_fr", "on"], ["_fron", "t"], ["_front", ","], ["_re", "se"], ["_rese", "ar"], ["_resear", "cher"], ["_researcher", "s"], ["_a", "n"], ["_A", "I"], ["_l", "a"], ["_la", "b"], ["_Ban", "g"], ["_Bang", "al"], ["_Bangal", "ore"], ["_un", "ve"], ["_unve", "il"], ["_unveil", "ed"], ["_sp", "e"], ["_spe", "ech"], ["_train", "ed"], ["_f", "ive"], ["_Indi", "an"], ["_l", "an"], ["_lan", "g"], ["_lang", "u"], ["_langu", "age"], ["_language", "s."], ["_op", "t"], ["_opt", "im"], ["_optim", "iz"], ["_optimiz", "ed"], ["_l", "ow"], ["_low", "-"], ["_low-", "re"], ["_low-re", "s"], ["_low-res", "our"], ["_low-resour", "ce"], ["_con", "d"], ["_cond", "ition"], ["_condition", "s"], ["_re", "al"], ["_real", "-"], ["_real-", "w"], ["_real-w", "or"], ["_real-wor", "ld"], ["_ac", "c"], ["_acc", "ents"], ["_accents", ",\u201d"], ["_l", "ea"], ["_lea", "d"], ["_sc", "ient"], ["_scient", "ist"], ["_scientist", "."], ["_p", "er"], ["_per", "for"], ["_perfor", "med"], ["_w", "el"], ["_wel", "l"], ["_e", "ven"], ["_n", "o"], ["_no", "is"], ["_nois", "y"], ["_en", "v"], ["_env", "ir"], ["_envir", "on"], ["_environ", "ments"], ["_environments", ","], ["_li", "ke"], ["_mar", "kets"], ["_station", "s."], ["_\u201c", "D"], ["_\u201cD", "id"], ["_c", "he"], ["_che", "ck"], ["_pric", "e"], ["_th", "is"], ["_morning", "?\u201d"], ["_as", "ked"], ["_R", "a"], ["_Ra", "v"], ["_Rav", "i"], ["_s", "ipp"], ["_sipp", "ed"], ["_b", "la"], ["_bla", "ck"], ["_c", "of"], ["_cof", "f"], ["_coff", "e"], ["_coffe", "e."], ["_\u201c", "Y"], ["_\u201cY", "ea"], ["_\u201cYea", "h,"], ["_it", "\u2019s"], ["_", "3"], ["_3", "."], ["_3.", "4"], ["_3.4", "%"], ["_3.4%", ",\u201d"], ["_re", "pl"], ["_repl", "i"], ["_repli", "ed"], ["_N", "e"], ["_Ne", "h"], ["_Neh", "a."], ["_\u201c", "G"], ["_\u201cG", "ood"], ["_\u201cGood", "."], ["_qu", "ar"], ["_quar", "ter"], ["_quarter", "ly"], ["_res", "ul"], ["_resul", "ts"], ["_m", "ust"], ["_must", "'"], ["_must'", "ve"], ["_imp", "ressed"], ["_in", "ve"], ["_inve", "stor"], ["_investor", "s."], ["_investors.", "\u201d"], ["_\u201cThe", "y"], ["_be", "at"], ["_re", "ven"], ["_reven", "ue"], ["_expect", "ation"], ["_expectation", "s,"], ["_g", "u"], ["_gu", "id"], ["_guid", "an"], ["_guidan", "ce"], ["_con", "s"], ["_cons", "erv"], ["_conserv", "at"], ["_conservat", "ive,\u201d"], ["_n", "ot"], ["_not", "ed,"], ["_sc", "ro"], ["_scro", "ll"], ["_scroll", "ing"], ["_W", "e"], ["_We", "ather"], ["_for", "ec"], ["_forec", "ast"], ["_forecast", "s"], ["_pr", "ed"], ["_pred", "ic"], ["_predic", "t"], ["_predict", "ed"], ["_th", "und"], ["_thund", "er"], ["_thunder", "stor"], ["_thunderstor", "ms"], ["_cent", "r"], ["_centr", "al"], ["_Indi", "a."], ["_Farmer", "s"], ["_w", "ar"], ["_war", "ned"], ["_d", "el"], ["_del", "ay"], ["_har", "ve"], ["_harve", "st"], ["_harvest", "ing"], ["_d", "ue"], ["_ris", "k"], ["_h", "a"], ["_ha", "il"], ["_d", "am"], ["_dam", "ag"], ["_damag", "e."], ["_m", "et"], ["_met", "e"], ["_mete", "or"], ["_meteor", "olog"], ["_meteorolog", "ic"], ["_meteorologic", "al"], ["_depart", "ment"], ["_re", "l"], ["_rel", "eas"], ["_releas", "ed"], ["_bu", "ll"], ["_bull", "et"], ["_bullet", "in"], ["_bulletin", ":"], ["_\u201cH", "ea"], ["_\u201cHea", "v"], ["_\u201cHeav", "y"], ["_", "rain"], ["_rain", "f"], ["_rainf", "all"], ["_li", "k"], ["_lik", "el"], ["_likel", "y"], ["_ne", "x"], ["_nex", "t"], ["_", "4"], ["_4", "8"], ["_h", "our"], ["_hour", "s."], ["_", "E"], ["_E", "x"], ["_Ex", "er"], ["_Exer", "c"], ["_Exerc", "is"], ["_Exercis", "e"], ["_ca", "ut"], ["_caut", "ion"], ["_caution", ".\u201d"], ["_sm", "all"], ["_v", "il"], ["_vil", "l"], ["_vill", "age"], ["_s", "ch"], ["_sch", "o"], ["_scho", "ol"], ["_school", ","], ["_c", "hildren"], ["_rec", "it"], ["_recit", "ed"], ["_po", "e"], ["_poe", "ms"], ["_un", "is"], ["_unis", "on"], ["_unison", "."], ["_\u201c", "K"], ["_\u201cK", "now"], ["_\u201cKnow", "led"], ["_\u201cKnowled", "g"], ["_\u201cKnowledg", "e"], ["_p", "ow"], ["_pow", "er,"], ["_", "ed"], ["_ed", "uc"], ["_educ", "ation"], ["_l", "ight"], ["_light", ",\u201d"], ["_teacher", ","], ["_wom", "an"], ["_n", "am"], ["_nam", "ed"], ["_An", "j"], ["_Anj", "al"], ["_Anjal", "i."], ["_S", "he"], ["_en", "c"], ["_enc", "ou"], ["_encou", "ra"], ["_encoura", "g"], ["_encourag", "ed"], ["_stud", "ents"], ["_as", "k"], ["_qu", "est"], ["_quest", "ion"], ["_question", "s"], ["_expl", "ore"], ["_s", "ur"], ["_sur", "rou"], ["_surrou", "nd"], ["_surround", "ing"], ["_surrounding", "s."], ["_L", "at"], ["_Lat", "er"], ["_a", "f"], ["_af", "ter"], ["_after", "n"], ["_aftern", "o"], ["_afterno", "on"], ["_afternoon", ","], ["_m", "an"], ["_st", "ood"], ["_ou", "tside"], ["_", "ra"], ["_ra", "il"], ["_rail", "way"], ["_t", "r"], ["_tr", "y"], ["_try", "ing"], ["_t", "icket"], ["_us", "ing"], ["_v", "o"], ["_vo", "ic"], ["_voic", "e"], ["_a", "ss"], ["_ass", "ist"], ["_assist", "an"], ["_assistan", "t"], ["_app", "."], ["_\u201cB", "oo"], ["_\u201cBoo", "k"], ["_L", "u"], ["_Lu", "ck"], ["_Luck", "now"], ["_Lucknow", ","], ["_depart", "ure"], ["_to", "m"], ["_tom", "or"], ["_tomor", "ro"], ["_tomorro", "w"], ["_tomorrow", ","], ["_s", "lee"], ["_slee", "per"], ["_c", "la"], ["_cla", "ss"], ["_class", ",\u201d"], ["_sp", "o"], ["_spo", "ke"], ["_c", "le"], ["_cle", "arly"], ["_int", "o"], ["_res", "p"], ["_resp", "on"], ["_respon", "d"], ["_respond", "ed,"], ["_\u201cS", "ure"], ["_\u201cSure", "."], ["_C", "on"], ["_Con", "f"], ["_Conf", "ir"], ["_Confir", "m"], ["_Confirm", "ing"], ["_you", "r"], ["_res", "erv"], ["_reserv", "ation"], ["_reservation", ".\u201d"], ["_O", "ver"], ["_D", "el"], ["_Del", "hi"], ["_Delhi", ","], ["_par", "l"], ["_parl", "i"], ["_parli", "am"], ["_parliam", "ent"], ["_parliament", "ary"], ["_deb", "ate"], ["_u", "nd"], ["_und", "er"], ["_under", "way"], ["_m", "in"], ["_min", "im"], ["_minim", "u"], ["_minimu", "m"], ["_su", "pp"], ["_supp", "or"], ["_suppor", "t"], ["_pric", "es"], ["_farmer", "s."], ["_o", "pp"], ["_opp", "os"], ["_oppos", "ition"], ["_de", "m"], ["_dem", "a"], ["_dema", "nd"], ["_demand", "ed"], ["_re", "v"], ["_rev", "is"], ["_revis", "ion"], ["_revision", "s,"], ["_c", "it"], ["_cit", "ing"], ["_in", "f"], ["_inf", "l"], ["_infl", "ation"], ["_ris", "ing"], ["_in", "p"], ["_inp", "ut"], ["_c", "o"], ["_co", "st"], ["_cost", "s."], ["_ne", "ed"], ["_en", "s"], ["_ens", "ure"], ["_ensure", "s"], ["_d", "ign"], ["_dign", "ity"], ["_com", "p"], ["_comp", "en"], ["_compen", "s"], ["_compens", "ation"], ["_compensation", ",\u201d"], ["_de", "cl"], ["_decl", "ar"], ["_declar", "ed"], ["_M", "P"], ["_MP", "."], ["_l", "oc"], ["_loc", "al"], ["_sh", "o"], ["_sho", "p"], ["_shop", ","], ["_deb", "at"], ["_debat", "es"], ["_tur", "ned"], ["_he", "at"], ["_heat", "ed"], ["_c", "r"], ["_cr", "icket"], ["_f", "an"], ["_fan", "s"], ["_d", "is"], ["_dis", "c"], ["_disc", "u"], ["_discu", "ssed"], ["_rec", "ent"], ["_m", "at"], ["_mat", "ch"], ["_match", "."], ["_\u201cW", "h"], ["_\u201cWh", "y"], ["_d", "id"], ["_d", "rop"], ["_A", "s"], ["_As", "h"], ["_Ash", "w"], ["_Ashw", "in"], ["_Ashwin", "?\u201d"], ["_\u201cH", "e"], ["_\u201cHe", "\u2019s"], ["_ou", "r"], ["_b", "est"], ["_sp", "in"], ["_spin", "n"], ["_spinn", "er"], ["_p", "it"], ["_pit", "c"], ["_pitc", "he"], ["_pitche", "s"], ["_pitches", "!"], ["_pitches!", "\u201d"], ["_\u201cS", "el"], ["_\u201cSel", "ect"], ["_\u201cSelect", "ors"], ["_k", "now"], ["_w", "hat"], ["_they", "\u2019"], ["_they\u2019", "re"], ["_d", "o"], ["_do", "ing"], ["_doing", ",\u201d"], ["_s", "ome"], ["_some", "on"], ["_someon", "e"], ["_m", "ut"], ["_mut", "ter"], ["_mutter", "ed."], ["_so", "f"], ["_sof", "t"], ["_soft", "war"], ["_softwar", "e"], ["_de", "v"], ["_dev", "el"], ["_devel", "o"], ["_develo", "per"], ["_wor", "ked"], ["_l", "ate"], ["_n", "ight"], ["_c", "hat"], ["_chat", "b"], ["_chatb", "ot"], ["_r", "ur"], ["_rur", "al"], ["_us", "er"], ["_user", "s."], ["_H", "e"], ["_f", "ed"], ["_s", "ent"], ["_sent", "en"], ["_senten", "c"], ["_sentenc", "es"], ["_H", "ing"], ["_Hing", "l"], ["_Hingl", "is"], ["_Hinglis", "h,"], ["_B", "ho"], ["_Bho", "j"], ["_Bhoj", "p"], ["_Bhojp", "ur"], ["_Bhojpur", "i"], ["_Bhojpuri", ","], ["_Mar", "at"], ["_Marat", "hi"], ["_imp", "ro"], ["_impro", "ve"], ["_int", "ent"], ["_recognition", "."], ["_g", "o"], ["_go", "al"], ["_m", "ake"], ["_m", "ore"], ["_in", "cl"], ["_incl", "u"], ["_inclu", "s"], ["_inclus", "ive,\u201d"], ["_w", "ro"], ["_wro", "te"], ["_d", "oc"], ["_doc", "u"], ["_docu", "ment"], ["_document", "ation"], ["_documentation", "."], ["_\u201cL", "if"], ["_\u201cLif", "e"], ["_is", "n"], ["_isn", "\u2019"], ["_isn\u2019", "t"], ["_al", "way"], ["_alway", "s"], ["_fair", ",\u201d"], ["_g", "ra"], ["_gra", "nd"], ["_grand", "m"], ["_grandm", "other"], ["_on", "ce"], ["_to", "ld"], ["_him", "."], ["_\u201cB", "ut"], ["_", "if"], ["_w", "ake"], ["_e", "arly"], ["_early", ","], ["_dr", "in"], ["_drin", "k"], ["_w", "at"], ["_wat", "er,"], ["_wor", "k"], ["_har", "d"], ["_hard", "\u2014"], ["_hard\u2014", "y"], ["_hard\u2014y", "ou"], ["_hard\u2014you", "'"], ["_hard\u2014you'", "ll"], ["_o", "k"], ["_ok", "ay"], ["_okay", ".\u201d"], ["_H", "er"], ["_wor", "d"], ["_word", "s"], ["_st", "ayed"], ["_n", "igh"], ["_nigh", "ts"], ["_deb", "u"], ["_debu", "gg"], ["_debugg", "ing"], ["_cod", "e"], ["_t", "est"], ["_test", "ing"], ["_de", "pl"], ["_depl", "o"], ["_deplo", "y"], ["_deploy", "ments"], ["_deployments", "."], ["_Mar", "kets"], ["_c", "l"], ["_cl", "os"], ["_clos", "ed"], ["_m", "i"], ["_mi", "x"], ["_mix", "ed"], ["_N", "if"], ["_Nif", "t"], ["_Nift", "y"], ["_fl", "at"], ["_S", "en"], ["_Sen", "se"], ["_Sense", "x"], ["_g", "ain"], ["_gain", "ing"], ["_1", "1"], ["_11", "2"], ["_poin", "ts."], ["_Ban", "k"], ["_Bank", "ing"], ["_stock", "s"], ["_st", "ren"], ["_stren", "g"], ["_streng", "th"], ["_w", "hile"], ["_I", "T"], ["_l", "ag"], ["_lag", "g"], ["_lagg", "ed."], ["_An", "al"], ["_Anal", "y"], ["_Analy", "st"], ["_Analyst", "s"], ["_vol", "at"], ["_volat", "il"], ["_volatil", "ity"], ["_con", "t"], ["_cont", "in"], ["_contin", "ue"], ["_a", "he"], ["_ahe", "ad"], ["_R", "B"], ["_RB", "I"], ["_me", "et"], ["_meet", "."], ["_S", "und"], ["_Sund", "ay"], ["_Sunday", ","], ["_f", "am"], ["_fam", "il"], ["_famil", "i"], ["_famili", "es"], ["_g", "ather"], ["_gather", "ed"], ["_par", "k"], ["_park", "."], ["_C", "hildren"], ["_p", "l"], ["_pl", "ayed"], ["_s", "w"], ["_sw", "ing"], ["_swing", "s,"], ["_", "eld"], ["_eld", "er"], ["_elder", "ly"], ["_f", "ol"], ["_fol", "k"], ["_folk", "s"], ["_w", "al"], ["_wal", "ked"], ["_g", "rou"], ["_grou", "p"], ["_group", "s,"], ["_v", "end"], ["_vend", "ors"], ["_s", "old"], ["_ro", "ast"], ["_roast", "ed"], ["_k", "ul"], ["_kul", "f"], ["_kulf", "i."], ["_g", "ir"], ["_gir", "l"], ["_f", "le"], ["_fle", "w"], ["_k", "it"], ["_kit", "e"], ["_f", "ather"], ["_father", ","], ["_shout", "ing"], ["_g", "lee"], ["_so", "ar"], ["_soar", "ed."], ["_com", "m"], ["_comm", "un"], ["_commun", "ity"], ["_cent", "er,"], ["_vol", "un"], ["_volun", "te"], ["_volunte", "er"], ["_t", "a"], ["_ta", "u"], ["_tau", "gh"], ["_taugh", "t"], ["_wom", "en"], ["_h", "ow"], ["_u", "se"], ["_sm", "art"], ["_smart", "p"], ["_smartp", "hone."], ["_\u201c", "T"], ["_\u201cT", "a"], ["_\u201cTa", "p"], ["_he", "re"], ["_op", "en"], ["_W", "hat"], ["_What", "s"], ["_Whats", "A"], ["_WhatsA", "pp"], ["_WhatsApp", ",\u201d"], ["_expl", "ain"], ["_explain", "ed"], ["_p", "at"], ["_pat", "ient"], ["_patient", "ly"], ["_patiently", "."], ["_M", "an"], ["_Man", "y"], ["_ne", "ver"], ["_he", "ld"], ["_t", "ou"], ["_tou", "ch"], ["_touch", "s"], ["_touchs", "c"], ["_touchsc", "re"], ["_touchscre", "en"], ["_be", "for"], ["_befor", "e."], ["_qu", "i"], ["_qui", "et"], ["_corn", "er"], ["_li", "b"], ["_lib", "r"], ["_libr", "ary"], ["_library", ","], ["_stud", "ent"], ["_p", "or"], ["_por", "ed"], ["_t", "it"], ["_tit", "led"], ["_", "*"], ["_*", "\""], ["_*\"", "The"], ["_H", "i"], ["_Hi", "stor"], ["_Histor", "y"], ["_S", "o"], ["_So", "il"], ["_S", "c"], ["_Sc", "i"], ["_Sci", "en"], ["_Scien", "ce"], ["_Science", "\""], ["_Science\"", "*"], ["_Science\"*", "."], ["_An", "other"], ["_s", "ket"], ["_sket", "ch"], ["_sketch", "ing"], ["_d", "i"], ["_di", "ag"], ["_diag", "ra"], ["_diagra", "ms"], ["_bi", "olog"], ["_biolog", "y"], ["_ex", "am"], ["_exam", "."], ["_O", "u"], ["_Ou", "tside"], ["_Outside", ","], ["_wor", "ld"], ["_bu", "z"], ["_buz", "z"], ["_buzz", "ed"], ["_on", ","], ["_ro", "om"], ["_room", ","], ["_m", "o"], ["_mo", "v"], ["_mov", "ed"], ["_slow", "er"], ["_slower", "."], ["_N", "ot"], ["_a", "ll"], ["_he", "ro"], ["_hero", "es"], ["_we", "ar"], ["_ca", "p"], ["_cap", "es"], ["_capes", "\u2014"], ["_capes\u2014", "s"], ["_capes\u2014s", "ome"], ["_a", "re"], ["_", "j"], ["_j", "ust"], ["_farmer", "s,"], ["_teacher", "s,"], ["_cod", "er"], ["_coder", "s,"], ["_m", "other"], ["_mother", "s"], ["_w", "ho"], ["_d", "ay"], ["_", "ke"], ["_ke", "e"], ["_kee", "p"], ["_whe", "el"], ["_wheel", "s"], ["_tur", "n"], ["_turn", "ing"], ["_turning", "."]], "vocab": ["_moved", "_\u201cLet's", "_station", "ow", "ver", "_Histor", "_five", "c", "_\u201cKnow", "_compens", "pl", "ore", "ertiliz", "_out,\u201d", "_encou", "_meteorological", "_suggest", "_sentenc", "erv", "_ra", "_\u201cSelect", "_emphasize", "_center,", "_lang", "_lead", "_capes\u2014some", "_meet.", "_diagrams", "_up", "_tomor", "_perfor", "_suppor", "_tau", "?", "_swings,", "_la", "_room,", "_elderly", "_nights", "hone.", "_por", "_IT", "ertilizer", "_bi", "_mutter", "_Lat", "_it\u2019s", "_mother", "_imp", "k", "_volatility", "_centr", "_youn", "_hard", "_cr", "ome", "2", "_thunder", "_tur", "j", "_dressed", "_\u201cThey", "_devel", "_don", "_spin", "_lib", "g", "_langu", "_farmers,", "_soared.", "an", "_volat", "_Confirming", "ight", "_mothers", "_min", "_48", "_Not", "_rese", "_gaining", "ert", "_del", "_wom", "_reservation.\u201d", "_vendors", "_flew", "_or", ".", "eas", "_recit", "_inclus", "_sentences", "_use", "_fair,\u201d", "_dep", "_Hi", "_okay.\u201d", "ly", "_\u201cTap", "_hour", "_reservation", "le", "_Bhojp", "_environments", "_Outside,", "_k", "u", "_children", "_day", "_question", "_scro", "ed.", "_Weather", "_Sensex", "_kulf", "_last", "_light", "_kit", "_bla", "_meet", "_emphasiz", "_stood", "_drin", "_on,", "s.", "_ensures", "_noisy", "R", "_under", "_declar", "i.", "_he", "ech", "_best", "ain", "_h", "_\u201cThe", "_cent", "_alway", "_tr", "ign", "_Priy", "ressed", "_\u201cSel", "_young", "_3.4%,\u201d", "_our", "ust", "_\u201cHe\u2019s", "_software", "5", "_walked", "_fans", "_investor", "_they", "_touchscreen", "\"", "_15%", "_scroll", "eld", "_opposition", "_Man", "_unve", "_soft", "_meteorologic", "_use.", "_shirts", "_lab", "_likely", "_surroundings.", "_so", "_ou", "_oppos", "_caut", "_ahe", "_Del", "_well", "_MP", "_*\"", "_Analy", "_world", "_Neha.", "_teachers,", "_4", "_comm", "_Me", "_und", "ld", "_gir", "ket", "_quarterly", "_assistan", "_languages.", "_biolog", "_exp", "_campaign.", "W", "_organ", "_never", "as", "_sketching", "_researcher", "_environ", "_field", "ho", "_ok", "_warned", "_scho", "_Lucknow", "_with", "_pol", "_check", "_revisions,", "_inf", "_showed", "_Another", "_always", "_we", "se", "_shop", "_in", "_deb", "_ca", "_Ex", "_code", "_tou", "_elder", "_Many", "_cost", "icket", "_real-wor", "ssed", "_rail", "_morning", "_dema", "per", "ity", "_al", "_ne", "_declared", "_likel", "_Nift", "_conditions", "of", "_quar", "_hero", "_The", "_\u201cY", "_assist", "_mat", "_no", "ked", "a.", "_u", "age", "_were", "_even", "_nex", "_unison", "_sp", "uc", "he", "_Priya", "_glee", "if", "_ir", "_turned", "_ask", "_ta", "ou", "_crops.", "ion", "_rur", "A", "_bullet", "_wrote", "_cit", "_opp", "_WhatsA", "_Over", "_Sci", "_responded,", "_Ban", "ast", "_Science", "_n", "_bulletin", "hild", "_wer", "ms", "_education", "_On", "_char", "_\u201cLet'", "_late", "_Priya,", "_mod", "_contin", "_optimiz", "_sugg", "_performed", "_caution.\u201d", "_pitches!\u201d", "_lagg", "_meteor", "_N", "C", "im", ",", "ar", "_sch", "_language", "on", "_Scien", "_What", "_afternoon", "_debu", "_be", "_fertilizer", "_department", "_tending", "_Outside", "_don't", "_minimu", "_*", "_commun", "r", "_rub", "_hard\u2014you'll", "ure", "_11", "ay", "_\u201cLet", "hat", "_stock", "_exam.", "m", "_repli", "_like", "_us", "arly", "_wro", "_kulfi.", "_fa", "_j", "_quiet", "_Lu", "_\u201cI", "_fam", "ake", "_water,", "_exam", "_I", "_biof", "_inclusive,\u201d", "ue", "_city,", "_pro", "_smartp", "ic", "e.", "_e", "_Exercise", "_campa", "_respon", "ood", "_at", "_said", "_ass", "_product", "_Sunday", "_damage.", "_man", "_Ra", "_bull", "_of", "_Analyst", "_dis", "_impro", "_deployments.", "_docu", "_stayed", "_Science\"*.", "_buzz", "_Exer", "_pitches!", "_smartphone.", "_released", "_dew-c", "_work", "_real-", "_match", "%", "_brainstor", "_minim", "_folks", "_through", "_already", "_guid", "_Bangal", "B", "_parli", "ition", "_optimized", "_environments,", "_predic", "_id", "_R", "_optim", "_f", "_was", "_goal", "_canal.", "_3.4%", "_We", "or", "_she", "_me", "_student", "_vend", "_deplo", "_teacher", "_sho", "_rural", "_th", "_casting", "_soil", "_over", "_community", "_local", "_WhatsApp", "_Rav", "_shout", "_env", "_\u201cIf", "_decl", "ec", "_hard\u2014y", "4", "_meteorolog", "_price", "_l", "n", "ertil", "iz", "_tomorrow", "_parliam", "_org", "_lon", "_recogn", "at", "_after", "_S", "_\u201cLif", "_shir", "_train", "_don'", "_towar", "_market", "_named", "oo", "_ensure", "_wal", "_o", "ven", "_unis", "_15", "_RB", "_brain", "_inflation", "_Hinglis", "_slow", "_harvesting", "stor", "all", "_yield,\u201d", "_light,\u201d", "_long-term", "_if", "_testing", "ors", "ned", "_must", "_unison.", "_inve", "_irrigate", "_they\u2019", "_mo", "_Nif", "_pitches", "_Farmer", "_c", "_st", "_Marat", "_tomorro", "_season", "_Exerc", "_open", "_F", "_C", "_flipp", "_front,", "_ens", "_expl", "w", "hil", "_dr", "igh", "_Meanwhile,", "_Luck", "_ac", "_encoura", "_qui", "_Mean", "_co", "ts", "_ke", "_might", "_revenue", "_buzzed", "_real", "_shou", "_this", "_farmer", "_shad", "_pit", "hildren", "_you", "our", "_loc", "_explained", "_railway", "_Bank", "_w", "_demanded", "ect", "_test", "_Sc", "_harvest", "v", "_t", "ll", "_Bhojpuri", "_doing", "hile", "_lag", "_groups,", "_his", "_suggested", "h,", "_low-resour", "_accents", "_predicted", "_touchsc", "_Meanw", "_know", "ul", "_In", "_fron", "_it", "od", "art", "_pitc", "_nigh", "_students", "1", "_pat", "_voice", "_night", "_educ", "_compensation", "_a", "_risk", "_grou", "_Indian", "st", "ur", "_m", "_told", "_conservat", "_comp", "_ris", "_em", "_assistant", "_go", "_inp", "is", "_de", "_canal", "_\u201cSure.", "_doc", "_parliamentary", "er,", "_father", "armer", "_chat", "now", "_Delhi", "_dam", "_golden", "_conservative,\u201d", "_tend", "_sket", "_sun", "_Anjal", "_just", "_revis", "_doing,\u201d", "_cla", "_pored", "x", "_\u201cHea", "_debugging", "th", "_par", "ist", "_dew-co", "_\u201cH", "_woman", "est", "_patiently.", "_touchs", "_produc", "_drop", "old", "_po", "_smart", "_Farmers", "_disc", "_show", "_spoke", "_Sund", "_met", "_lea", "_So", "_cod", "_poe", "_mar", "ent", "_surround", "_okay", "_Banking", "_At", "_tit", "_volun", "_Analysts", "_gathered", "_sh", "_irrig", "_P", "_boots", "_y", "_patient", "_room", "F", "_guidance", "_into", "_worked", "_small", "e", "_capes\u2014", "und", "_\u201cKnowled", "_clearly", "med", "_how", "_all", "_park.", "_shop,", "_noted,", "rou", "_\u201cHeav", "_incl", "_costs.", "q", "_model", "_Sunday,", "_roasted", "_en", "D", "_is", "_unveiled", "_slee", "ol", "l", "_reserv", "_him", "_resp", "_developer", "H", "ayed", "_\u201cBut", "_Hing", "her", "_fr", "_vil", "_Anal", "ir", "_ed", "_Hinglish,", "_charts.", "_She", "_op", "_Bang", "_aftern", "_Hingl", "_front", "gn", "_3", "_Bangalore", "_turning.", "_harve", "ient", "8", "_vo", "_\u201cDid", "_expect", "_roast", "!", "_improve", "_RBI", "_\u201cTa", "_deploy", "_played", "olog", "ents", "_Ravi", "_families", "_compensation,\u201d", "_enc", "_wheels", "rop", "_today,", "_conserv", "_grandm", "_fan", "other", "ri", "_citing", "_low-", "_\u201cW", "_stations.", "_underway", "_next", "_closed", "_policy", "un", "_3.", "_famil", "_releas", "_spinner", "_emphas", "ot", "_whe", "_\u201cD", "_Anjali.", "_pric", "_famili", "_him.", "_\u201cWh", "_thund", "os", "_held", "_ch", "_fle", "ce", "_on", "ch", "_prices", "_prod", "ss", "ing", "_health", "_Ne", "_fad", "_\u201cSelectors", "_outside", "ts.", "_word", "_D", "_He", "_\u201cKnowledge", "_user", "_un", "_here", "_spo", "_\u201cYeah,", "_trying", "_ha", "*", "_every", "_fair", "_power,", "M", "_thunderstorms", "_accents,\u201d", "_turning", "_re", "_grand", "_E", "_but", "_mixed", "_camp", "_users.", "\u2014", "_\u201cK", "_early,", "_coder", "_delay", "ed", "_slower.", "_wit", "_gather", "gh", "_Markets", "_debates", "_int", "_someon", "_school", "_new", "_can", "_condition", "_libr", "_infl", "er", "ments", "_Marathi", "_deployments", "\u2019s", "_spinn", "_wear", "_chatbot", "_opt", "_isn\u2019t", "_shouted", "_touch", "_fl", "P", "ro", "_point", "_tod", "_intent", "_women", "_the", "E", "ive", "_flipping", "s", "b", "es", "_af", "_ex", "_mut", "_group", "_rainfall", "_voic", "_nam", "_compen", "_brainstormed", "_\u201cLife", "_early", "_3.4", "_girl", "_Bhoj", "_streng", "_ticket", "_city", "_debate", "_poems", "_investors.\u201d", "_book", "'", "_investors.", "ather", "_discu", "_acro", "_that", "_fields,", "\u2019", "led", "_hard\u2014you'", "_q", "_explain", "_\u201cKnowledg", "_fed", "_qu", "_rec", "_\u201cB", "f", "z", "_researchers", "_fro", "en", "_\u201cT", "_an", "_cons", "_wake", "_fol", "_softwar", "_recognition", "_cle", "_morning?\u201d", "_discussed", "_befor", "_Confirm", "_W", "_clos", "_depart", "_Sen", "_beat", "_from", "_kee", "_before.", "_Lucknow,", "_reven", "_park", "_dign", "_eld", "_support", "_folk", "_irri", "_forec", "_pl", "_due", "_stu", "_black", "_using", "\u201c", "tsid", "_emph", "_afternoon,", "_gu", "h", "_gold", "te", "_rel", "_mov", "oc", "_", "_hard\u2014you", "_repl", "_1", "_B", "_pow", "_r", "_b", "a", "_wat", "_mix", "_sold", "_diagra", "lee", "_app.", "_sw", "ive,\u201d", "_documentation", "_input", "_biology", "_res", "_tea", "_must've", "_buz", "_isn\u2019", "_kite", "_them,", "_\u201cS", "_reco", "_out", "_muttered.", "_predict", "_library,", "rain", "_respond", "_WhatsApp,\u201d", "3", "_throu", "_boots,", "_sipped", "_departure", "?\u201d", "kets", "_damag", "N", "_wel", "_sc", "ck", "Y", "_coffee.", "_time", "_they\u2019re", "_\u201cHe", "_marketing", "_father,", "_organic", "_cl", "_sur", "_O", "_scient", "ipp", "_d", "_one", "_wheat", "_har", "_ahead", "_\u201cGood", "et", "_coffe", "_dew-cover", "_stud", "_su", "_Ashwin", "_drink", "_Neh", "_thunderstor", "olo", ",\u201d", "ke", "_caution", "_Children", "_Confir", "_tom", "_asked", "_sm", "_li", "_*\"The", "_points.", "_rev", "_Bhojpuri,", "_school,", "arm", "_did", "_sipp", "_coff", "_taugh", "ary", "_Her", "_village", "_surrounding", "_war", "L", "_speech", "_biofertilizer", "_corn", "el", "_team", "_con", "_teacher,", "_cam", "_low-res", "_Whats", "id", "_recent", "_long-", "o", "ve", "_shadow", "_alread", "hon", "_central", "_g", "_touchscre", "_emp", "_parl", "_H", "ren", "_expectation", "_stocks", "_lan", "_AI", ".\u201d", "_turn", "_scientist", "_\u201cWe", "_v", "_phone.", "_wheat.", "_seas", "_Science\"", "ra", "_As", "_heroes", "ag", "_toward", "_across", "_Data", "_cap", "_gra", "_per", "_Ash", "_to", "_hours.", "_and", "ut", "_inclu", "_today", "_recited", "_A", "_resul", "y", "_not", "_L", "_trained", "_explore", "_lik", "_as", "_sto", "_document", "_Meanwhile", "_sof", "_Pri", "_low-resource", "_An", "_morn", "ate", "cher", "_dev", "_com", "_volunte", "_Sense", "_bulletin:", "_Science\"*", "_\u201cG", "_mi", "_sketch", "_unveil", "_resear", "ation", "_chatb", "_Nifty", "_Exercis", "_titled", "_pitche", "_app", "_heat", "_roots", "_demand", "nd", "_wor", "_sl", "_debugg", "_\u201cHeavy", "_polic", "_make", "_bu", "il", "_words", "_productiv", "_what", "_encouraged", "_ro", "_are", "in", "_Soil", "_lagged.", "_your", "_Ou", "_do", "_diag", "_pointing", "_wheel", "_low-re", "_Farmers,", "_forecast", "_rubber", "_\u201cWhy", "_di", "_112", "_Dat", " ", "_real-w", "_sleeper", "_library", "_her", "_Anj", "_someone", "_for", "_grandmother", "_long", "_Con", "_corner", "_\u201cBook", "_them", "G", "_\u201cSure", "ad", "_vill", "_kul", "_surrou", "_markets", "_dew-", "I", "_\u201cYea", "for", "_minimum", "_cof", "_coders,", "_\u201cL", "_cont", "O", "_rose", "ed,", "_swing", "_shadows", "_long-ter", "_slower", "i", "_Delhi,", "_MP.", "_History", "_tech", "_ideas", "cl", "_forecasts", "_cricket", "_hail", "_their", "_more", "p", "om", "_need", "_Bhojpur", "_\u201cGood.", "_p", "_strength", "_Indi", "_supp", "_Conf", "_rubb", "_heal", "_guidan", "_scrolling", "_continue", "_cond", "_s", "_Ashwin?\u201d", "_dew", "ter", "_\u201c", "_India.", "war", "_dem", "_mete", "_spe", "_debat", "_volunteer", "_encourag", "_who", "_acc", "_questions", "ea", "_flat", "tside", "_cast", "_try", "_im", "s,", "am", "gg", "_roo", "_gain", "way", "_poin", "_campaign", ":", "_rainf", "_M", "_isn", "_capes", "T", "_class", "_keep", "_quarter", "la", "_Ind", "K", "end", "_real-world", "orn", "_dew-covered", "_capes\u2014s", "_develo", "t", "_soar", "_alre", "ment", "_dignity", "it", "_sa", "_vol", "_Bho", "S", "_ru", "_results", "_ever", "re", "_sent", "_tomorrow,", "_rain", "_faded", "_crop", "_farmers.", "_senten", "_pred", "_depl", "_scientist.", "_tim", "_patiently", "_replied", "_rising", "_quest", "The", "_boost", "_shouting", "_low", "_stren", "_taught", "_che", "_\u201cBoo", "_match.", "_documentation.", "_pr", "_productivity", "-", "_nois", "d", "_hard\u2014", "\u201d", "_heated", "pp", "_revision", "_parliament", "_envir", "_expectations,", "_Ashw", "_had", "_Later", "_boo", "_afterno", "_dry", "_volatil", "_recognition.", "_class,\u201d", "_impressed", "_once", "hi", "_producti", "_while", "_Mar", "_yield", "ield", "al", "_some", "_must'"]}