{"merge_rules": [["_", "t"], ["h", "e"], ["_", "a"], ["i", "n"], ["e", "d"], ["_", "s"], ["o", "n"], ["e", "r"], ["e", "n"], ["a", "t"], ["o", "r"], ["_", "c"], ["_", "w"], ["a", "r"], ["_t", "he"], ["_", "d"], ["in", "g"], ["_", "f"], ["r", "e"], ["n", "d"], ["o", "u"], ["i", "t"], ["_", "m"], ["s", "t"], ["_", "\u201c"], ["_", "p"], ["_", "in"], ["i", "s"], ["_a", "nd"], ["_", "b"], ["_t", "o"], ["r", "o"], ["_", "l"], ["t", "s"], ["i", "l"], ["i", "on"], ["a", "n"], ["a", "l"], ["_", "o"], ["_", "re"], ["_", "h"], ["e", "l"], ["o", "w"], [",", "\u201d"], ["he", "r"], ["a", "y"], ["k", "e"], ["en", "t"], ["o", "l"], ["_d", "e"], ["i", "r"], ["e", "a"], ["i", "c"], ["_", "e"], ["_", "u"], ["T", "he"], ["_", "g"], ["s", ","], ["s", "."], ["_", "on"], ["r", "a"], ["_", "n"], ["_s", "t"], ["_s", "h"], ["g", "h"], ["i", "d"], ["_", "he"], ["_t", "h"], ["_", "A"], ["v", "e"], ["i", "m"], ["at", "ion"], ["v", "er"], ["s", "s"], ["o", "o"], ["_o", "f"], ["_", "y"], ["p", "p"], ["e", "."], ["e", "c"], ["o", "m"], ["_", "The"], ["a", "d"], ["_", "M"], ["_f", "or"], ["a", "m"], ["_y", "ou"], ["u", "t"], ["o", "t"], ["e", "s"], ["h", "il"], ["it", "y"], ["ra", "in"], ["e", "t"], ["r", "ou"], ["_w", "it"], ["_wit", "h"], ["_", "I"], ["a", "g"], ["c", "k"], ["l", "y"], ["_e", "x"], ["_", "v"], ["_", "S"], ["u", "r"], ["or", "n"], ["_", "ro"], ["s", "e"], ["a", "st"], ["ar", "m"], ["arm", "er"], ["_", "r"], ["_b", "oo"], ["_", "ou"], ["i", "gh"], ["ke", "t"], ["_t", "ea"], ["st", "or"], ["_n", "e"], ["i", "z"], ["g", "n"], ["a", "s"], ["t", "er"], ["e", "st"], ["_", "O"], ["_re", "c"], ["it", "ion"], ["o", "d"], ["c", "e"], ["l", "d"], ["en", "ts"], ["_a", "s"], ["_h", "is"], ["p", "l"], ["l", "l"], ["c", "h"], ["_", "is"], ["l", "e"], ["_w", "or"], ["_", "H"], ["_s", "u"], ["el", "d"], ["_l", "on"], ["_lon", "g"], ["_a", "c"], ["ss", "ed"], ["_the", "ir"], ["at", "e"], ["igh", "t"], ["_p", "o"], ["hil", "e"], ["ea", "s"], ["_s", "o"], ["_th", "rou"], ["_throu", "gh"], ["_sh", "ow"], ["_u", "s"], ["ec", "h"], ["c", "her"], ["_a", "t"], ["_", "B"], ["or", "e"], ["_s", "p"], ["_t", "rain"], ["i", "ve"], ["_\u201c", "W"], ["_c", "on"], ["_", "en"], ["_l", "i"], ["_p", "r"], ["k", "ed"], ["_", "it"], ["_u", "p"], ["_", "N"], ["_", "q"], ["_q", "u"], ["_re", "s"], ["_b", "e"], ["u", "e"], ["ec", "t"], ["_w", "as"], ["_", "her"], ["h", "on"], ["hon", "e."], ["at", "her"], ["m", "s"], ["ar", "t"], [".", "\u201d"], ["r", "en"], ["n", "ow"], ["er", ","], ["_you", "n"], ["_youn", "g"], ["_A", "n"], ["_th", "at"], ["w", "ay"], ["u", "re"], ["_de", "b"], ["_", "k"], ["h", "at"], ["ed", "."], ["i", "f"], ["ot", "her"], ["_m", "orn"], ["_morn", "ing"], ["_o", "ver"], ["ol", "d"], ["i", "eld"], ["_ac", "ro"], ["_acro", "ss"], ["_w", "he"], ["_", "F"], ["_F", "armer"], ["re", "ssed"], ["_w", "er"], ["_wer", "e"], ["_a", "l"], ["_ou", "t"], ["en", "d"], ["ro", "p"], ["_w", "e"], ["_d", "on"], ["_don", "'"], ["_don'", "t"], ["r", "i"], ["_to", "d"], ["_tod", "ay"], ["_d", "r"], ["_sh", "ou"], ["_shou", "t"], ["_on", "e"], ["_the", "m"], ["_po", "in"], ["w", "ar"], ["_M", "e"], ["_Me", "an"], ["_Mean", "w"], ["_Meanw", "hile"], ["_Meanwhile", ","], ["_m", "ar"], ["m", "ed"], ["er", "t"], ["ert", "il"], ["ertil", "iz"], ["ertiliz", "er"], ["i", "gn"], ["_\u201c", "L"], ["t", "h"], ["g", "g"], ["_f", "l"], ["i", "pp"], ["ts", "."], ["_", "D"], ["_show", "ed"], ["_", "1"], ["u", "c"], ["_b", "i"], ["o", "f"], ["_O", "n"], ["_t", "ech"], ["_B", "an"], ["_u", "n"], ["_rec", "o"], ["_reco", "gn"], ["_recogn", "ition"], ["_m", "od"], ["_mod", "el"], ["_I", "nd"], ["_Ind", "i"], ["ag", "e"], ["_\u201cW", "e"], ["_o", "p"], ["ou", "r"], ["_s", "a"], ["_sa", "id"], ["_s", "c"], ["i", "ent"], ["i", "st"], ["f", "or"], ["v", "en"], ["m", "ents"], ["ke", "ts"], ["_st", "ation"], ["_st", "o"], ["_sto", "ck"], ["_pr", "ic"], ["?", "\u201d"], ["_", "R"], ["l", "a"], ["h", ","], ["\u2019", "s"], ["a", "."], ["oo", "d"], ["u", "l"], ["u", "st"], ["_", "im"], ["_im", "p"], ["_\u201c", "The"], ["_ex", "p"], ["_exp", "ect"], ["_b", "ut"], ["er", "v"], ["ive", ",\u201d"], ["_s", "he"], ["ed", ","], ["_p", "hone."], ["_", "W"], ["u", "nd"], ["_c", "ent"], ["n", "ed"], ["_h", "ar"], ["_r", "is"], ["ol", "o"], ["olo", "g"], ["_de", "p"], ["_dep", "art"], ["m", "ent"], ["_b", "u"], ["_\u201c", "H"], ["al", "l"], ["_c", "a"], ["_I", "n"], ["_s", "m"], ["hil", "d"], ["hild", "ren"], ["l", "ed"], ["_tea", "cher"], ["_w", "om"], ["i", "."], ["_st", "u"], ["_stu", "d"], ["_ex", "pl"], ["_", "L"], ["ts", "id"], ["tsid", "e"], ["_boo", "k"], ["ic", "ket"], ["_a", "pp"], ["_\u201c", "B"], ["_m", "e"], ["le", "e"], ["p", "er"], ["ar", "ly"], ["_in", "t"], ["_\u201c", "S"], ["_", "C"], ["h", "i"], ["_p", "ar"], ["ar", "y"], ["_f", "armer"], ["o", "s"], ["_p", "ol"], ["_pol", "ic"], ["_polic", "y"], ["_f", "a"], ["_fa", "ir"], ["_c", "om"], ["c", "l"], ["_A", "t"], ["o", "c"], ["_t", "ur"], ["_the", "y"], ["_s", "l"], ["_sl", "ow"], ["or", "s"], ["om", "e"], ["h", "o"], ["_M", "ar"], ["a", "ke"], ["t", "e"], ["_h", "ad"], ["_h", "im"], ["ay", "ed"], ["_c", "od"], ["a", "in"], ["_v", "ol"], ["_c", "orn"], ["_e", "ver"], ["_ever", "y"], ["_t", "im"], ["_tim", "e"], ["u", "n"], ["_su", "n"], ["_ro", "se"], ["_g", "old"], ["_gold", "en"], ["_f", "ield"], ["_field", "s,"], ["_c", "ast"], ["_cast", "ing"], ["_sh", "ad"], ["_shad", "ow"], ["_shadow", "s"], ["_de", "w"], ["_dew", "-"], ["_dew-", "c"], ["_dew-c", "o"], ["_dew-co", "ver"], ["_dew-cover", "ed"], ["_whe", "at"], ["_wheat", "."], ["_Farmer", "s,"], ["_d", "ressed"], ["_f", "ad"], ["_fad", "ed"], ["_sh", "ir"], ["_shir", "ts"], ["_r", "u"], ["_ru", "b"], ["_rub", "b"], ["_rubb", "er"], ["_boo", "ts"], ["_boots", ","], ["_al", "re"], ["_alre", "ad"], ["_alread", "y"], ["_t", "end"], ["_tend", "ing"], ["_c", "rop"], ["_crop", "s."], ["_\u201c", "I"], ["_\u201cI", "f"], ["_", "ir"], ["_ir", "ri"], ["_irri", "g"], ["_irrig", "ate"], ["_today", ","], ["_ro", "o"], ["_roo", "ts"], ["_m", "ight"], ["_dr", "y"], ["_out", ",\u201d"], ["_shout", "ed"], ["_them", ","], ["_poin", "t"], ["_point", "ing"], ["_to", "war"], ["_towar", "d"], ["_c", "an"], ["_can", "al"], ["_canal", "."], ["_c", "ity"], ["_city", ","], ["_mar", "ket"]], "vocab": ["_don", "_pointing", "j", "l", "ient", "s.", "ssed", "N", "med", "_f", "_said", "_su", "ressed", "_Farmer", "igh", "ign", "_tim", "_\u201cI", "ield", "_shirts", "_m", "\u2014", "ned", "F", "_\u201cB", "_sp", "ment", "_market", "er,", "ake", ".\u201d", "erv", "os", "ure", "_\u201cH", "on", "_roots", "ast", "st", "_me", "_tend", "rop", "_D", "_polic", "_they", "i", "_sc", "_r", "ro", "p", "f", "_wom", "_app", "om", "_mod", "_irrig", "_them", "_Ban", "_N", "re", " ", "_st", "_out", "_de", "ve", "_shad", "_e", "C", "K", "_morn", "_had", "ts.", "_already", "lee", "end", ",\u201d", "other", "la", "_towar", "if", "eas", "_q", "es", "L", "_but", "_him", "_out,\u201d", "et", "_rec", "_fl", "ed", "_A", "_roo", "_morning", "rou", "_n", "_ever", "te", "est", "_fields,", "_S", "ech", "ked", "g", "_canal", "ate", "_sl", "_ir", "_cod", "_wor", "_exp", "nd", "_golden", "_par", "il", "id", "_at", "5", "_recognition", "ec", "ea", "_\u201cThe", "ke", "ed,", "ue", "_was", "_faded", "d", "ents", "_today,", "_might", "led", "_rubber", "_with", "_en", "_dr", "ld", "_rubb", "_w", "_expl", "_B", "_p", "_we", "_M", "H", "_expect", "_sto", "_har", "_wit", "w", "_\u201cIf", "ertilizer", "a", "_station", "it", "\"", "ren", "ag", "th", "ri", "_c", "_\u201cL", "ion", "ter", "t", "_she", "The", "b", "icket", "E", "_th", "s", "_youn", "_be", "hi", "_L", "_shout", "ce", "u", "_mar", "cl", "i.", "_bi", "_don't", "ol", "e.", "ive", "is", "ments", "_Mean", "?", ":", "_tur", "_their", "_stud", "_un", "_ac", "_R", "_farmer", "_H", "_corn", "_sa", "h,", "_boots,", "_y", "ather", "war", "art", "ot", "_al", "_dew-", "_shadow", "oo", "ay", "_rub", "_pr", "\u2019", "_\u201c", "_dew-co", "_1", "_l", "_W", "_Ind", "_v", "_int", "_pol", "ho", "_fa", "ipp", "_tea", "ss", "ent", "_cast", "am", "im", "_wer", "_teacher", "_whe", "_ru", "_Meanwhile,", "_sm", "_ris", "_An", "_acro", "_he", "ing", "_fair", "_can", "!", "_dew-cover", "_dry", "_young", "ation", "_her", "ur", "_po", "er", "_deb", "uc", "al", "gg", "rain", "_\u201cW", "ity", "ra", "_so", "ou", "arly", "_were", "_ou", "ch", "ut", ",", "_im", "1", "O", "_every", "_slow", "_of", "_At", "A", "_over", "ow", "_model", "ul", "hil", "our", "ain", "_tech", "_is", "_as", "ight", "_that", "_On", "_alread", "_sun", "4", "or", "q", "olo", "of", "_Me", "he", "_sh", "_policy", "armer", "kets", "gn", "_wheat.", "hat", "in", "_boots", "en", "ome", "_canal.", "ive,\u201d", "_res", "\u2019s", "_qu", "_for", "per", "z", "stor", "_C", "G", "gh", "_ne", "_crop", "_ca", "eld", "_casting", "_up", "pl", "ertiliz", "_on", "_g", "ore", "_dew", "_con", "cher", "_ex", "_it", "hone.", "_op", "ir", "_I", "hon", "_showed", "ms", "S", "_time", "e", "_crops.", "_Meanwhile", "o", "all", "_\u201cS", "old", "_depart", "ed.", "_phone.", "B", "for", "_stock", "olog", "_tod", "_and", "tsid", "_field", "ver", "_train", "_Meanw", "_recogn", "\u201d", "_cent", "_lon", "_u", "her", "_\u201cWe", "_The", "R", "un", "P", "_show", "_fad", "ll", "'", "_dew-c", "_F", "le", "3", "x", "_d", "_toward", "age", "ayed", "2", "_stu", "c", "ect", "_li", "_O", "_poin", "_reco", "_long", "_ro", "_dressed", "se", "r", "_you", "_com", "_gold", "ic", "_rose", "_the", "_tending", "T", ".", "_pric", "*", "s,", "_", "_point", "v", "_b", "od", "as", "_one", "an", "orn", "oc", "_his", "_Mar", "el", "ar", "_alre", "und", "_In", "_to", "_vol", "_dew-covered", "ist", "ary", "_today", "_s", "_irrigate", "_book", "way", "_don'", "hild", "_shou", "_in", "ition", "_across", "arm", "_Indi", "ts", "_bu", "_dep", "_irri", "_h", "h", "_a", "tside", "_Farmers,", "ad", "_o", "_city", "m", "_throu", "now", "ly", "hile", "W", "ertil", "_re", "_city,", "ck", "ust", "hildren", "_imp", "n", "_boo", "_wheat", "_k", "ert", "M", "D", "ood", "at", "_through", "%", "\u201c", "y", "ket", "_us", "a.", "I", "ors", "_t", "_them,", "ven", "8", "_shouted", "Y", "_shadows", "-", "?\u201d", "iz", "pp", "k", "_shir"]}